0000
0192
0324
04b5
0646
07d6
0964
0af1
0c7c
0e06
0f8d
1112
1294
1413
1590
1709
187e
19ef
1b5d
1cc6
1e2b
1f8c
20e7
223d
238e
24da
2620
2760
289a
29ce
2afb
2c21
2d41
2e5a
2f6c
3076
3179
3274
3368
3453
3537
3612
36e5
37b0
3871
392b
39db
3a82
3b21
3bb6
3c42
3cc5
3d3f
3daf
3e15
3e72
3ec5
3f0f
3f4f
3f85
3fb1
3fd4
3fec
3ffb
4000
3ffb
3fec
3fd4
3fb1
3f85
3f4f
3f0f
3ec5
3e72
3e15
3daf
3d3f
3cc5
3c42
3bb6
3b21
3a82
39db
392b
3871
37b0
36e5
3612
3537
3453
3368
3274
3179
3076
2f6c
2e5a
2d41
2c21
2afb
29ce
289a
2760
2620
24da
238e
223d
20e7
1f8c
1e2b
1cc6
1b5d
19ef
187e
1709
1590
1413
1294
1112
0f8d
0e06
0c7c
0af1
0964
07d6
0646
04b5
0324
0192
0000
fe6e
fcdc
fb4b
f9ba
f82a
f69c
f50f
f384
f1fa
f073
eeee
ed6c
ebed
ea70
e8f7
e782
e611
e4a3
e33a
e1d5
e074
df19
ddc3
dc72
db26
d9e0
d8a0
d766
d632
d505
d3df
d2bf
d1a6
d094
cf8a
ce87
cd8c
cc98
cbad
cac9
c9ee
c91b
c850
c78f
c6d5
c625
c57e
c4df
c44a
c3be
c33b
c2c1
c251
c1eb
c18e
c13b
c0f1
c0b1
c07b
c04f
c02c
c014
c005
c000
c005
c014
c02c
c04f
c07b
c0b1
c0f1
c13b
c18e
c1eb
c251
c2c1
c33b
c3be
c44a
c4df
c57e
c625
c6d5
c78f
c850
c91b
c9ee
cac9
cbad
cc98
cd8c
ce87
cf8a
d094
d1a6
d2bf
d3df
d505
d632
d766
d8a0
d9e0
db26
dc72
ddc3
df19
e074
e1d5
e33a
e4a3
e611
e782
e8f7
ea70
ebed
ed6c
eeee
f073
f1fa
f384
f50f
f69c
f82a
f9ba
fb4b
fcdc
fe6e
d689
f2fe
3c76
160d
eb85
fbb9
c60a
4280
ddd2
0d9e
e974
1edb
094c
eb06
0dc9
f48b
32d5
12f9
2f38
4638
2a9b
01da
ecf0
20c4
f7a5
2be8
104f
2c7a
1078
069c
e8ff
fea3
1c82
175b
f6e4
fbcc
0f3f
fbe6
1121
01d7
3b35
dd18
2990
d10c
0400
faef
c2bb
00b7
2b86
dff2
2b2f
d892
c0ea
f8d6
f188
299f
f648
5244
f0cb
fc71
0682
395b
0d3d
1205
e851
02d2
0676
1b76
e057
339c
07ba
0521
fbf6
ee09
1339
252a
0789
cc22
3d57
21ce
a915
1376
1ee6
08ba
e501
c5fc
2197
387b
2b31
12fd
c33a
2ce8
f822
0fd8
12fc
208c
bfcf
095e
c35f
f4f3
c046
1d13
ff02
1d4f
f73e
ea92
389c
0694
2028
ead8
d29c
0ca4
b4e1
eaed
33f0
0a6d
05ea
2201
f264
ee15
d45b
f610
0210
da4c
564c
b52a
2be0
d65e
092b
